TRT-8204-EntropyCalibration2
input.1: 3c010a14
input.4: 3ec6695e
onnx::Mul_355: 3c010a14
onnx::Conv_356: 3ea25635
input.12: 3f1a29c3
onnx::Mul_359: 3c010a14
onnx::Conv_360: 3e97122f
input.20: 3eb87fe8
onnx::Mul_363: 3c010a14
onnx::Conv_364: 3dc5f272
input.28: 3ef2e55a
onnx::Mul_367: 3c011222
onnx::Conv_368: 3d926e94
input.36: 3ea5ee23
onnx::Mul_371: 3c010a14
onnx::Add_372: 3e1208d8
onnx::Concat_373: 3e964246
input.44: 3ef20e70
onnx::Mul_376: 3c010a14
onnx::Concat_377: 3e964246
input.48: 3e964246
input.56: 3e9476a9
onnx::Mul_381: 3c010a14
onnx::Conv_382: 3d910f2d
input.64: 3def842c
onnx::Mul_385: 3c00f1d4
onnx::Conv_386: 3d1288f9
input.72: 3d829f78
onnx::Mul_389: 3bf57b9c
onnx::Conv_390: 3c753448
input.80: 3d7a1974
onnx::Mul_393: 3bff467f
onnx::Conv_394: 3d267e4f
input.88: 3d48c7e5
onnx::Mul_397: 3c011152
onnx::Add_398: 3c804a1b
input.92: 3d0e6de8
input.100: 3d795dd8
onnx::Mul_402: 3c00cf79
onnx::Conv_403: 3c9ade7f
input.108: 3d953a8f
onnx::Mul_406: 3c00c552
onnx::Add_407: 3d133900
onnx::Concat_408: 3d6482fb
input.116: 3ddb09fa
onnx::Mul_411: 3c00efd1
onnx::Concat_412: 3d6482fb
input.120: 3d6482fb
input.128: 3d8bed07
onnx::Mul_416: 3c009e7c
onnx::Conv_417: 3ceaada3
input.136: 3dc624d2
onnx::Mul_420: 3c021404
onnx::Conv_421: 3cb8213f
input.144: 3d730f0a
onnx::Mul_424: 3c00800d
onnx::Conv_425: 3c24c224
input.152: 3dbcc6ab
onnx::Mul_428: 3c002ee6
onnx::Conv_429: 3d125e42
input.160: 3d87c75c
onnx::Mul_432: 3c030129
onnx::Add_433: 3c24eb66
input.164: 3d404c36
input.172: 3d96b3d6
onnx::Mul_437: 3c00aa73
onnx::Conv_438: 3c993035
input.180: 3d6402b4
onnx::Mul_441: 3c007332
onnx::Add_442: 3c9147dd
input.184: 3d2b5874
input.192: 3d5fbce6
onnx::Mul_446: 3c0195e7
onnx::Conv_447: 3c90dba0
input.200: 3d7c97b4
onnx::Mul_450: 3c00d770
onnx::Add_451: 3d126860
onnx::Concat_452: 3d10c935
input.208: 3df6b278
onnx::Mul_455: 3c00e68f
onnx::Concat_456: 3d10c935
input.212: 3d10c935
input.220: 3d635828
onnx::Mul_460: 3bffc342
onnx::Conv_461: 3c9116ab
input.228: 3d680542
onnx::Mul_464: 3c00a936
onnx::Conv_465: 3c805615
input.236: 3d3cfbfc
onnx::Mul_468: 3bf63371
onnx::Conv_469: 3c1afe51
input.244: 3d846eb9
onnx::Mul_472: 3c00fbb0
onnx::Conv_473: 3cd49311
input.252: 3d8feccf
onnx::Mul_476: 3c00e2ea
onnx::Add_477: 3d145e5d
onnx::Concat_478: 3d10ab9c
input.260: 3d8525fe
onnx::Mul_481: 3c00d3e7
onnx::Concat_482: 3d10ab9c
input.264: 3d10ab9c
input.272: 3d6ebe44
onnx::Mul_486: 3c003149
onnx::Conv_487: 3cc0d450
input.280: 3d4990ca
onnx::Mul_490: 3c0036d4
onnx::MaxPool_491: 3d6702fb
onnx::MaxPool_492: 3d6702fb
onnx::MaxPool_493: 3d6702fb
onnx::Concat_494: 3d6702fb
input.284: 3d6702fb
input.292: 3d497b45
onnx::Mul_498: 3c00ac20
onnx::Conv_499: 3c9a113a
input.300: 3d5eba60
onnx::Mul_502: 3c00a971
onnx::Resize_503: 3ceb8174
onnx::Concat_508: 3c9116ab
input.304: 3c9116ab
input.312: 3d3f7592
onnx::Mul_512: 3bfe6a81
onnx::Conv_513: 3c87a4a2
input.320: 3d37600d
onnx::Mul_516: 3bff0595
onnx::Conv_517: 3cb23989
input.328: 3d44a958
onnx::Mul_520: 3c00c8db
onnx::Concat_521: 3c9a3ae0
input.336: 3d434096
onnx::Mul_524: 3c00b6a6
onnx::Concat_525: 3c9a3ae0
input.340: 3c9a3ae0
input.348: 3d66b6dc
onnx::Mul_529: 3c019850
onnx::Conv_530: 3cd63223
input.356: 3d3ca727
onnx::Mul_533: 3c00c068
onnx::Resize_534: 3ce8ec67
onnx::Concat_539: 3ceaada3
input.360: 3ceaada3
input.368: 3d305443
onnx::Mul_543: 3bf24e67
onnx::Conv_544: 3c669317
input.376: 3d22130d
onnx::Mul_547: 3bf27588
onnx::Conv_548: 3c99dde0
input.384: 3d955f19
onnx::Mul_551: 3c014356
onnx::Concat_552: 3d278350
input.392: 3d42dae3
onnx::Mul_555: 3c0038d8
onnx::Concat_556: 3d278350
input.396: 3d278350
input.404: 3e21ace8
onnx::Mul_560: 3c010a14
onnx::Conv_561: 3d946c37
input.412: 3d5d6ecc
onnx::Mul_564: 3c00bc74
onnx::Concat_565: 3ce8ec67
input.416: 3ce8ec67
input.424: 3d47fdd0
onnx::Mul_569: 3c00ef84
onnx::Conv_570: 3c9a0bb1
input.432: 3d3c2274
onnx::Mul_573: 3c010d69
onnx::Conv_574: 3c912ada
input.440: 3d9754f9
onnx::Mul_577: 3c00d576
onnx::Concat_578: 3d01923b
input.448: 3d4c06c5
onnx::Mul_581: 3c0103f2
onnx::Concat_582: 3d01923b
input.452: 3d01923b
input.460: 3e1621f8
onnx::Mul_586: 3c010a14
onnx::Conv_587: 3d6a2370
input.468: 3d6cb3ce
onnx::Mul_590: 3c00ffac
onnx::Concat_591: 3ceb8174
input.472: 3ceb8174
input.480: 3d843365
onnx::Mul_595: 3c01091f
onnx::Conv_596: 3cb1cfd2
input.488: 3d8cace7
onnx::Mul_599: 3c052651
onnx::Conv_600: 3cc80bf9
input.496: 3dbb5d9f
onnx::Mul_603: 3c020ef2
onnx::Concat_604: 3d01709f
input.504: 3d632f9c
onnx::Mul_607: 3c00fc43
onnx::Concat_608: 3d01709f
input.508: 3d01709f
input.516: 3e06863c
onnx::Mul_612: 3c010a14
onnx::Conv_613: 3d0fdf1b
onnx::Shape_614: 3e16df03
onnx::Transpose_637: 3e16df03
onnx::Sigmoid_638: 3e16df03
onnx::Slice_721: 3bc0e9a9
onnx::Mul_726: 3bfa1fed
(Unnamed Layer* 202) [Shuffle]_output: 3c810a14
onnx::Add_728: 3c7a1fed
(Unnamed Layer* 204) [Constant]_output: 3f1e465d
onnx::Mul_729: 3f2074f0
(Unnamed Layer* 207) [Shuffle]_output: 3d810a14
onnx::Expand_731: 40a074f0
onnx::Reshape_738: 40a074f0
(Unnamed Layer* 211) [Constant]_output: 3f1f4871
onnx::Slice_845: 40a074f0
onnx::Mul_850: 3bfede50
(Unnamed Layer* 215) [Shuffle]_output: 3c810a14
onnx::Pow_852: 3c7ede50
(Unnamed Layer* 218) [Shuffle]_output: 3c810a14
onnx::Mul_854: 3cfdce3f
(Unnamed Layer* 220) [Constant]_output: 3e851265
onnx::Expand_855: 3f7cf04b
onnx::Reshape_862: 3f7cf04b
(Unnamed Layer* 224) [Constant]_output: 3f1f4871
onnx::Reshape_969: 40a074f0
onnx::Concat_979: 40a074f0
onnx::Shape_980: 3df38cdd
onnx::Transpose_1003: 3df38cdd
onnx::Sigmoid_1004: 3df38cdd
onnx::Slice_1087: 3b9fb6f8
onnx::Mul_1092: 3bff0cd6
(Unnamed Layer* 233) [Shuffle]_output: 3c810a14
onnx::Add_1094: 3c7f0cd6
(Unnamed Layer* 235) [Constant]_output: 3e9b4020
onnx::Mul_1095: 3eac466f
(Unnamed Layer* 238) [Shuffle]_output: 3e010a14
onnx::Expand_1097: 40ac466f
onnx::Reshape_1104: 40ac466f
(Unnamed Layer* 242) [Constant]_output: 3e9d4449
onnx::Slice_1211: 409f7c31
onnx::Mul_1216: 3bfef853
(Unnamed Layer* 246) [Shuffle]_output: 3c810a14
onnx::Pow_1218: 3c7ef853
(Unnamed Layer* 249) [Shuffle]_output: 3c810a14
onnx::Mul_1220: 3d0532b6
(Unnamed Layer* 251) [Constant]_output: 3f6feebd
onnx::Expand_1221: 40657644
onnx::Reshape_1228: 40657644
(Unnamed Layer* 255) [Constant]_output: 3e9d4449
onnx::Reshape_1335: 409f7c31
onnx::Concat_1345: 40a074f0
onnx::Shape_1346: 3de374f1
onnx::Transpose_1369: 3de374f1
onnx::Sigmoid_1370: 3de374f1
onnx::Slice_1453: 3b9c0b6f
onnx::Mul_1458: 3bfeec05
(Unnamed Layer* 264) [Shuffle]_output: 3c810a14
onnx::Add_1460: 3c7eec05
(Unnamed Layer* 266) [Constant]_output: 3e1533a7
onnx::Mul_1461: 3e1ff342
(Unnamed Layer* 269) [Shuffle]_output: 3e810a14
onnx::Expand_1463: 409ff342
onnx::Reshape_1470: 409ff342
(Unnamed Layer* 273) [Constant]_output: 3e193bf8
onnx::Slice_1577: 409dcb3f
onnx::Mul_1582: 3bfedcad
(Unnamed Layer* 277) [Shuffle]_output: 3c810a14
onnx::Pow_1584: 3c7edcad
(Unnamed Layer* 280) [Shuffle]_output: 3c810a14
onnx::Mul_1586: 3cfce66e
(Unnamed Layer* 282) [Constant]_output: 403c03af
onnx::Expand_1587: 40bb55fc
onnx::Reshape_1594: 40bb55fc
(Unnamed Layer* 286) [Constant]_output: 3e193bf8
onnx::Reshape_1701: 409dcb3f
onnx::Concat_1711: 40a074f0
1712: 40a074f0
